#ifndef AUTOENCODER_MODEL_H
#define AUTOENCODER_MODEL_H


unsigned char autoencoder_model[] = {
  0x1c, 0x00, 0x00, 0x00, 0x54, 0x46, 0x4c, 0x33, 0x14, 0x00, 0x20, 0x00,
  0x1c, 0x00, 0x18, 0x00, 0x14, 0x00, 0x10, 0x00, 0x0c, 0x00, 0x00, 0x00,
  0x08, 0x00, 0x04, 0x00, 0x14, 0x00, 0x00, 0x00, 0x1c, 0x00, 0x00, 0x00,
  0x88, 0x00, 0x00, 0x00, 0xe0, 0x00, 0x00, 0x00, 0xe0, 0x0d, 0x00, 0x00,
  0xf0, 0x0d, 0x00, 0x00, 0x98, 0x14, 0x00, 0x00, 0x03, 0x00, 0x00, 0x00,
  0x01, 0x00, 0x00, 0x00, 0x04, 0x00, 0x00, 0x00, 0x62, 0xf1, 0xff, 0xff,
  0x0c, 0x00, 0x00, 0x00, 0x1c, 0x00, 0x00, 0x00, 0x38, 0x00, 0x00, 0x00,
  0x0f, 0x00, 0x00, 0x00, 0x73, 0x65, 0x72, 0x76, 0x69, 0x6e, 0x67, 0x5f,
  0x64, 0x65, 0x66, 0x61, 0x75, 0x6c, 0x74, 0x00, 0x01, 0x00, 0x00, 0x00,
  0x04, 0x00, 0x00, 0x00, 0x94, 0xff, 0xff, 0xff, 0x0a, 0x00, 0x00, 0x00,
  0x04, 0x00, 0x00, 0x00, 0x07, 0x00, 0x00, 0x00, 0x64, 0x65, 0x6e, 0x73,
  0x65, 0x5f, 0x31, 0x00, 0x01, 0x00, 0x00, 0x00, 0x04, 0x00, 0x00, 0x00,
  0x02, 0xf2, 0xff, 0xff, 0x04, 0x00, 0x00, 0x00, 0x0e, 0x00, 0x00, 0x00,
  0x63, 0x6f, 0x6e, 0x76, 0x32, 0x64, 0x5f, 0x31, 0x5f, 0x69, 0x6e, 0x70,
  0x75, 0x74, 0x00, 0x00, 0x02, 0x00, 0x00, 0x00, 0x34, 0x00, 0x00, 0x00,
  0x04, 0x00, 0x00, 0x00, 0xdc, 0xff, 0xff, 0xff, 0x0d, 0x00, 0x00, 0x00,
  0x04, 0x00, 0x00, 0x00, 0x13, 0x00, 0x00, 0x00, 0x43, 0x4f, 0x4e, 0x56,
  0x45, 0x52, 0x53, 0x49, 0x4f, 0x4e, 0x5f, 0x4d, 0x45, 0x54, 0x41, 0x44,
  0x41, 0x54, 0x41, 0x00, 0x08, 0x00, 0x0c, 0x00, 0x08, 0x00, 0x04, 0x00,
  0x08, 0x00, 0x00, 0x00, 0x0c, 0x00, 0x00, 0x00, 0x04, 0x00, 0x00, 0x00,
  0x13, 0x00, 0x00, 0x00, 0x6d, 0x69, 0x6e, 0x5f, 0x72, 0x75, 0x6e, 0x74,
  0x69, 0x6d, 0x65, 0x5f, 0x76, 0x65, 0x72, 0x73, 0x69, 0x6f, 0x6e, 0x00,
  0x0e, 0x00, 0x00, 0x00, 0xfc, 0x0c, 0x00, 0x00, 0xf4, 0x0c, 0x00, 0x00,
  0xc4, 0x0c, 0x00, 0x00, 0x34, 0x0c, 0x00, 0x00, 0x18, 0x0c, 0x00, 0x00,
  0x00, 0x0c, 0x00, 0x00, 0xb0, 0x00, 0x00, 0x00, 0xa8, 0x00, 0x00, 0x00,
  0xa0, 0x00, 0x00, 0x00, 0x98, 0x00, 0x00, 0x00, 0x90, 0x00, 0x00, 0x00,
  0x88, 0x00, 0x00, 0x00, 0x68, 0x00, 0x00, 0x00, 0x04, 0x00, 0x00, 0x00,
  0xb6, 0xf2, 0xff, 0xff, 0x04, 0x00, 0x00, 0x00, 0x54, 0x00, 0x00, 0x00,
  0x0c, 0x00, 0x00, 0x00, 0x08, 0x00, 0x0e, 0x00, 0x08, 0x00, 0x04, 0x00,
  0x08, 0x00, 0x00, 0x00, 0x10, 0x00, 0x00, 0x00, 0x24, 0x00, 0x00, 0x00,
  0x00, 0x00, 0x06, 0x00, 0x08, 0x00, 0x04, 0x00, 0x06, 0x00, 0x00, 0x00,
  0x04, 0x00, 0x00, 0x00, 0x00, 0x00, 0x00, 0x00, 0x00, 0x00, 0x0a, 0x00,
  0x10, 0x00, 0x0c, 0x00, 0x08, 0x00, 0x04, 0x00, 0x0a, 0x00, 0x00, 0x00,
  0x01, 0x00, 0x00, 0x00, 0x02, 0x00, 0x00, 0x00, 0x04, 0x00, 0x00, 0x00,
  0x06, 0x00, 0x00, 0x00, 0x32, 0x2e, 0x31, 0x35, 0x2e, 0x30, 0x00, 0x00,
  0x16, 0xf3, 0xff, 0xff, 0x04, 0x00, 0x00, 0x00, 0x10, 0x00, 0x00, 0x00,
  0x31, 0x2e, 0x35, 0x2e, 0x30, 0x00, 0x00, 0x00, 0x00, 0x00, 0x00, 0x00,
  0x00, 0x00, 0x00, 0x00, 0x38, 0xed, 0xff, 0xff, 0x3c, 0xed, 0xff, 0xff,
  0x40, 0xed, 0xff, 0xff, 0x44, 0xed, 0xff, 0xff, 0x48, 0xed, 0xff, 0xff,
  0x46, 0xf3, 0xff, 0xff, 0x04, 0x00, 0x00, 0x00, 0x40, 0x0b, 0x00, 0x00,
  0xfb, 0x10, 0x86, 0xbd, 0xc9, 0x52, 0x2f, 0xc0, 0x70, 0x28, 0x6e, 0xc0,
  0x5c, 0x71, 0x3d, 0x3e, 0x3e, 0xe0, 0x22, 0xbd, 0x14, 0x1a, 0x88, 0xbd,
  0xd6, 0x59, 0x51, 0xc0, 0xd9, 0xe6, 0x09, 0x40, 0xb8, 0x07, 0x29, 0xbd,
  0xa3, 0xf1, 0xf7, 0xbf, 0x05, 0xca, 0x44, 0xc0, 0x5b, 0xa9, 0x0a, 0x3d,
  0x89, 0xd6, 0xef, 0xbd, 0x01, 0x6b, 0xb6, 0xbd, 0x49, 0x85, 0x1e, 0xc0,
  0x3c, 0xa1, 0xc7, 0x3f, 0x34, 0xf9, 0x09, 0x3d, 0x79, 0x73, 0x8e, 0xc0,
  0x18, 0x94, 0xae, 0xc0, 0xc1, 0x05, 0xdd, 0x3d, 0x14, 0x6e, 0x3c, 0xbd,
  0x90, 0x03, 0xce, 0x3c, 0x82, 0xd0, 0x9d, 0xc0, 0x90, 0xa6, 0x03, 0x40,
  0x84, 0xc3, 0xb0, 0xbd, 0x32, 0x79, 0x2d, 0xc0, 0x93, 0x8d, 0x78, 0xc0,
  0x2f, 0xa2, 0x02, 0x3e, 0xda, 0x9e, 0xf9, 0x3d, 0x30, 0xb6, 0x37, 0xbd,
  0x1d, 0x4e, 0x5a, 0xc0, 0xbc, 0x5f, 0x1f, 0x40, 0xc0, 0x1c, 0x24, 0x3d,
  0xa6, 0x9a, 0xf8, 0xbf, 0xc7, 0xc0, 0x48, 0xc0, 0xf1, 0xb6, 0xd9, 0x3d,
  0x9e, 0xd2, 0xe9, 0xbd, 0x20, 0x45, 0xa7, 0xbc, 0x22, 0x20, 0x1b, 0xc0,
  0xfb, 0x25, 0xbb, 0x3f, 0x90, 0x70, 0xc3, 0xbd, 0xd5, 0x4f, 0x8e, 0xc0,
  0x13, 0x1d, 0xa9, 0xc0, 0x4a, 0xf1, 0x42, 0xbd, 0x50, 0xe0, 0x8d, 0x3c,
  0x94, 0x53, 0x57, 0x3d, 0xc3, 0x79, 0xa5, 0xc0, 0x1f, 0x95, 0x0f, 0x40,
  0x30, 0xc5, 0x99, 0x3d, 0xa4, 0x42, 0x2a, 0xc0, 0xdf, 0x9d, 0x6d, 0xc0,
  0x38, 0x83, 0x2c, 0x3d, 0x49, 0x8f, 0x80, 0xbd, 0x90, 0x63, 0x9e, 0x3c,
  0xe1, 0x04, 0x4c, 0xc0, 0x34, 0x34, 0x0e, 0x40, 0xf0, 0xcb, 0x33, 0x3d,
  0x13, 0x53, 0x01, 0xc0, 0x80, 0x2b, 0x34, 0xc0, 0xee, 0x61, 0x16, 0x3e,
  0xf4, 0xba, 0x63, 0x3d, 0x20, 0x91, 0x47, 0x3c, 0x86, 0x26, 0x25, 0xc0,
  0xc9, 0x2d, 0xb4, 0x3f, 0x43, 0x15, 0x0c, 0x3e, 0xb1, 0x2a, 0x8f, 0xc0,
  0x40, 0x85, 0xa6, 0xc0, 0x22, 0x6b, 0xa6, 0x3c, 0xfb, 0x37, 0xa6, 0xbd,
  0x18, 0x11, 0x4f, 0x3d, 0x53, 0x01, 0xa1, 0xc0, 0x64, 0xf4, 0x04, 0x40,
  0x79, 0x35, 0x18, 0x3e, 0xb4, 0xb2, 0x25, 0xc0, 0x6f, 0xc1, 0x78, 0xc0,
  0x0b, 0x53, 0x22, 0x3e, 0xe8, 0x5f, 0x05, 0x3d, 0xf4, 0x56, 0x61, 0xbd,
  0xa1, 0xc3, 0x59, 0xc0, 0x5f, 0x12, 0x1c, 0x40, 0x6a, 0x1a, 0x12, 0xbe,
  0xa3, 0x0d, 0xf5, 0xbf, 0x2d, 0x1d, 0x48, 0xc0, 0xc1, 0x74, 0xe3, 0x3d,
  0x78, 0x08, 0x62, 0x3d, 0xd6, 0x8b, 0xd3, 0x3d, 0xdc, 0x9c, 0x2e, 0xc0,
  0x1d, 0x02, 0xa4, 0x3f, 0x42, 0xf7, 0xd5, 0x3d, 0x9e, 0xdc, 0x8d, 0xc0,
  0x7e, 0x22, 0xac, 0xc0, 0x21, 0xa6, 0x48, 0x3d, 0x10, 0xbe, 0x6f, 0xbc,
  0x4a, 0xb6, 0x9f, 0xbd, 0xdf, 0x5f, 0xa2, 0xc0, 0x13, 0x51, 0x08, 0x40,
  0xc0, 0x6c, 0x6f, 0x3b, 0x3b, 0x31, 0x2f, 0xc0, 0xbf, 0x6c, 0x6f, 0xc0,
  0x55, 0x3c, 0xb1, 0x3d, 0xc9, 0x55, 0x06, 0x3e, 0x5e, 0xff, 0x51, 0xbd,
  0x25, 0xd4, 0x5e, 0xc0, 0x57, 0xfe, 0x1d, 0x40, 0xa8, 0xf3, 0xc2, 0xbd,
  0x17, 0xd4, 0x07, 0xc0, 0x40, 0x37, 0x43, 0xc0, 0xae, 0xdd, 0x22, 0x3b,
  0x8b, 0x28, 0x14, 0xbe, 0xf8, 0x54, 0xde, 0xbd, 0xd3, 0x90, 0x16, 0xc0,
  0x01, 0x9c, 0xb1, 0x3f, 0xb8, 0x11, 0x4c, 0x3d, 0x43, 0xc8, 0x91, 0xc0,
  0x98, 0xcd, 0xab, 0xc0, 0xfe, 0xc6, 0x77, 0x3d, 0x4c, 0xc1, 0xab, 0x3d,
  0xa1, 0x14, 0x07, 0x3e, 0x19, 0x1f, 0xa2, 0xc0, 0x70, 0x03, 0x09, 0x40,
  0xe9, 0x17, 0x12, 0xbe, 0x56, 0xc8, 0x29, 0xc0, 0x97, 0x77, 0x73, 0xc0,
  0x53, 0xbb, 0xf0, 0x3d, 0x0a, 0x28, 0xe8, 0x3d, 0x73, 0xfb, 0x1c, 0x3e,
  0x03, 0xc9, 0x57, 0xc0, 0xff, 0xe1, 0x1f, 0x40, 0x86, 0x07, 0xe4, 0x3d,
  0x22, 0xbd, 0xfa, 0xbf, 0x8b, 0xee, 0x31, 0xc0, 0x19, 0x79, 0x17, 0x3d,
  0xe4, 0x7b, 0x09, 0x3d, 0xac, 0x93, 0x07, 0xbd, 0x53, 0xb4, 0x31, 0xc0,
  0x43, 0x20, 0xa5, 0x3f, 0x9e, 0x94, 0x8e, 0xbd, 0xd5, 0xd1, 0x8d, 0xc0,
  0x2c, 0x0d, 0xac, 0xc0, 0xd8, 0xb0, 0xb6, 0x3d, 0x00, 0x99, 0xb7, 0xba,
  0xb2, 0xa1, 0xc4, 0x3d, 0x7d, 0x1b, 0xa1, 0xc0, 0xfb, 0x2d, 0xfe, 0x3f,
  0x69, 0xba, 0xcb, 0xbd, 0x3c, 0xfa, 0x32, 0xc0, 0x69, 0x75, 0x64, 0xc0,
  0x22, 0x5b, 0x2d, 0xbd, 0x95, 0x9c, 0x1c, 0x3e, 0x24, 0xd9, 0x0f, 0x3d,
  0xcd, 0x55, 0x61, 0xc0, 0x28, 0x9b, 0x22, 0x40, 0x80, 0x3b, 0x23, 0xbc,
  0x3b, 0xc2, 0xe6, 0xbf, 0xcc, 0xe4, 0x48, 0xc0, 0x92, 0x11, 0x65, 0x3d,
  0x1a, 0x0d, 0xbf, 0x3d, 0x20, 0x6d, 0xcc, 0xbb, 0xa1, 0x04, 0x35, 0xc0,
  0x70, 0x40, 0xaa, 0x3f, 0x60, 0xb9, 0xd6, 0x3c, 0xe2, 0xd2, 0x95, 0xc0,
  0x5e, 0xde, 0xaf, 0xc0, 0xf0, 0xb4, 0xaf, 0x3d, 0x08, 0x48, 0xb9, 0xbc,
  0x38, 0xcb, 0xe5, 0xbd, 0xa5, 0xb7, 0xa2, 0xc0, 0xed, 0x69, 0x03, 0x40,
  0xca, 0xc3, 0xf3, 0xbd, 0xe3, 0x12, 0x2f, 0xc0, 0x2d, 0x56, 0x6e, 0xc0,
  0x50, 0x4f, 0x39, 0x3e, 0x50, 0x88, 0x13, 0x3c, 0xc9, 0xf8, 0x16, 0x3e,
  0xa1, 0x05, 0x5b, 0xc0, 0x93, 0x06, 0x30, 0x40, 0xa2, 0x6c, 0x15, 0xbe,
  0xf4, 0x69, 0x07, 0xc0, 0xc0, 0xf4, 0x46, 0xc0, 0xc2, 0xcc, 0x5a, 0x3e,
  0x80, 0x3e, 0x0e, 0x3d, 0x50, 0x78, 0x0f, 0x3d, 0x88, 0xec, 0x23, 0xc0,
  0xfe, 0x5a, 0xa5, 0x3f, 0xb0, 0xf3, 0x16, 0x3c, 0x3a, 0x76, 0x8b, 0xc0,
  0x45, 0x51, 0xaa, 0xc0, 0xd7, 0x9f, 0xe2, 0x3d, 0xdc, 0xfc, 0xb4, 0x3d,
  0x60, 0xf5, 0x8d, 0x3c, 0x80, 0xaa, 0xa0, 0xc0, 0x78, 0x2e, 0x06, 0x40,
  0xf0, 0xab, 0x6b, 0x3c, 0xa1, 0x59, 0x35, 0xc0, 0x4b, 0x41, 0x69, 0xc0,
  0xb1, 0x51, 0x0b, 0x3d, 0xd8, 0xe0, 0x65, 0x3d, 0xc6, 0x64, 0xc4, 0x3d,
  0xd0, 0xf0, 0x59, 0xc0, 0x32, 0x9d, 0x29, 0x40, 0xdc, 0x92, 0x6b, 0xbd,
  0xe8, 0xcf, 0xfe, 0xbf, 0xd1, 0x40, 0x39, 0xc0, 0x4d, 0xe6, 0x8e, 0x3d,
  0x24, 0x51, 0x47, 0xbd, 0x1c, 0x12, 0x59, 0x3d, 0xcd, 0x1b, 0x26, 0xc0,
  0xc7, 0x85, 0xa8, 0x3f, 0xef, 0x57, 0x8d, 0xbd, 0x80, 0x43, 0x8d, 0xc0,
  0x81, 0x07, 0xac, 0xc0, 0xb4, 0x7a, 0x05, 0xbc, 0x9a, 0xcf, 0xe5, 0xbd,
  0xea, 0xb8, 0x18, 0xbd, 0x1a, 0x10, 0xa0, 0xc0, 0xda, 0xab, 0x01, 0x40,
  0xb0, 0x96, 0xa1, 0xbc, 0x87, 0xb1, 0x23, 0xc0, 0x2f, 0x5e, 0x68, 0xc0,
  0xb2, 0xd5, 0x39, 0x3e, 0x76, 0x7c, 0x25, 0xbd, 0x68, 0xd8, 0x00, 0x3d,
  0xc8, 0x64, 0x5d, 0xc0, 0x68, 0x00, 0x29, 0x40, 0xb0, 0xef, 0x2c, 0x3d,
  0x50, 0x62, 0xf8, 0xbf, 0x20, 0xbb, 0x3d, 0xc0, 0x91, 0xb6, 0x3a, 0x3d,
  0x58, 0x88, 0xc0, 0xbc, 0x8e, 0xce, 0xcf, 0x3d, 0x1b, 0xfb, 0x30, 0xc0,
  0xce, 0x8c, 0xca, 0x3f, 0x76, 0x42, 0xcd, 0x3d, 0xcd, 0xec, 0x8e, 0xc0,
  0x0e, 0xc3, 0xac, 0xc0, 0xc1, 0xb3, 0xe8, 0xbb, 0xd0, 0x5b, 0xe4, 0xbc,
  0xa0, 0x54, 0x89, 0xbd, 0x75, 0x0f, 0x9b, 0xc0, 0x18, 0xa3, 0xfc, 0x3f,
  0x38, 0x19, 0xa6, 0xbd, 0x4a, 0xa6, 0xa0, 0xbe, 0xa1, 0x4e, 0xa4, 0xbf,
  0xaf, 0xfd, 0x51, 0x3e, 0x0f, 0x8e, 0xf9, 0xbd, 0xba, 0x7e, 0x9a, 0x3d,
  0xda, 0xae, 0x46, 0xbf, 0x59, 0xe9, 0x27, 0xc0, 0xe2, 0x37, 0x87, 0x3d,
  0xb8, 0xc8, 0xbe, 0xbe, 0x6c, 0xfc, 0xb8, 0xbf, 0xed, 0x9c, 0x01, 0x3e,
  0xd7, 0x49, 0x20, 0x3e, 0x13, 0x69, 0x18, 0x3e, 0x0f, 0x77, 0x6e, 0xbf,
  0xb6, 0xe9, 0x00, 0xc0, 0x12, 0xcc, 0xfc, 0x3d, 0xe9, 0x91, 0xab, 0x3f,
  0x3c, 0x5e, 0x24, 0x3f, 0xb5, 0x50, 0xa9, 0x3d, 0x7e, 0x1f, 0x0d, 0xbe,
  0xe4, 0x55, 0x0c, 0x3d, 0xb3, 0x81, 0xad, 0x3f, 0x42, 0x4d, 0x10, 0xc0,
  0x1a, 0x04, 0xf8, 0x3d, 0x5c, 0xf6, 0xc6, 0xbe, 0x39, 0x29, 0xc4, 0xbf,
  0x11, 0xed, 0x87, 0x3d, 0xee, 0x48, 0x61, 0xbd, 0xd4, 0xb1, 0x8b, 0x3d,
  0xa5, 0x20, 0x2c, 0xbf, 0x16, 0x4a, 0x31, 0xc0, 0xc7, 0xbd, 0x09, 0xbe,
  0x49, 0xe2, 0xa5, 0xbe, 0xf5, 0x1a, 0xbd, 0xbf, 0xc7, 0xc5, 0x15, 0x3e,
  0x80, 0x9e, 0xee, 0x3b, 0x8b, 0x62, 0x12, 0x3e, 0x26, 0x72, 0x73, 0xbf,
  0xc6, 0x0f, 0xe5, 0xbf, 0x8c, 0x18, 0x73, 0xbd, 0x6c, 0xeb, 0xb8, 0x3f,
  0x4c, 0xec, 0x19, 0x3f, 0xfb, 0x50, 0x29, 0xbd, 0xe9, 0xee, 0x06, 0x3e,
  0x5e, 0x79, 0x82, 0xbd, 0x52, 0x3f, 0xa0, 0x3f, 0xf2, 0x61, 0x16, 0xc0,
  0x30, 0x45, 0xa2, 0xbc, 0x18, 0xba, 0xaa, 0xbe, 0xfe, 0x9a, 0x9f, 0xbf,
  0xa6, 0xda, 0xaa, 0x3c, 0xba, 0xc3, 0x1f, 0xbd, 0x76, 0x84, 0xff, 0x3d,
  0x58, 0xfc, 0x57, 0xbf, 0xa0, 0xeb, 0x36, 0xc0, 0xc9, 0x67, 0xf8, 0xbd,
  0x88, 0x05, 0xac, 0xbe, 0xbd, 0xcf, 0xd5, 0xbf, 0x95, 0x80, 0x1b, 0x3e,
  0xa0, 0xc0, 0xc4, 0xbb, 0x50, 0x17, 0xcd, 0xbc, 0x52, 0xad, 0x93, 0xbf,
  0xc0, 0x40, 0x02, 0xc0, 0x54, 0xc5, 0xa8, 0x3d, 0xfa, 0x5e, 0xb5, 0x3f,
  0x8e, 0x10, 0x16, 0x3f, 0x79, 0x43, 0x46, 0xbd, 0x22, 0xcc, 0xe4, 0x3d,
  0x78, 0x3a, 0xf1, 0x3c, 0xbd, 0x84, 0xb0, 0x3f, 0xd0, 0xb3, 0x15, 0xc0,
  0xa8, 0x96, 0xf9, 0x3c, 0xd4, 0xc3, 0x8b, 0xbe, 0xc2, 0x0d, 0xaf, 0xbf,
  0x44, 0x6e, 0x36, 0x3e, 0x30, 0x81, 0x03, 0xbe, 0xda, 0x1f, 0xe1, 0x3d,
  0xaf, 0x8a, 0x4f, 0xbf, 0xc6, 0x77, 0x37, 0xc0, 0x8a, 0x7f, 0xce, 0x3d,
  0x2d, 0xaa, 0xd6, 0xbe, 0x96, 0x1a, 0xb9, 0xbf, 0xe4, 0xb5, 0x41, 0x3e,
  0x60, 0x29, 0x53, 0xbc, 0xf0, 0x34, 0xc7, 0xbd, 0x58, 0x08, 0x7a, 0xbf,
  0xdd, 0x24, 0xf0, 0xbf, 0x48, 0x26, 0xc8, 0x3c, 0x19, 0xf5, 0xa4, 0x3f,
  0x06, 0x47, 0x29, 0x3f, 0xfa, 0xd8, 0xbb, 0x3b, 0xfa, 0x79, 0x10, 0xbe,
  0xc0, 0x82, 0xd3, 0xbb, 0xe7, 0x4f, 0x9f, 0x3f, 0x0f, 0x7d, 0x08, 0xc0,
  0xa8, 0x38, 0x0f, 0xbe, 0xe1, 0x76, 0x9f, 0xbe, 0xa2, 0xb2, 0xae, 0xbf,
  0x3b, 0x5f, 0x31, 0x3d, 0xc1, 0xd8, 0xb2, 0xbd, 0x7e, 0x7b, 0xa8, 0x3d,
  0x85, 0x24, 0x11, 0xbf, 0xae, 0x26, 0x3e, 0xc0, 0x42, 0xf8, 0xd5, 0x3d,
  0x9c, 0xcf, 0x6e, 0xbe, 0x7d, 0xa0, 0xbd, 0xbf, 0xf8, 0x44, 0x63, 0x3d,
  0xe0, 0xe5, 0x9e, 0x3c, 0x98, 0x82, 0xfa, 0xbc, 0xc3, 0xe2, 0x87, 0xbf,
  0x37, 0x57, 0xdf, 0xbf, 0x78, 0x0f, 0xe3, 0x3c, 0x64, 0xa2, 0xc0, 0x3f,
  0x93, 0xab, 0x5b, 0x3f, 0xfa, 0x87, 0x8b, 0x3c, 0x4a, 0x47, 0xcb, 0x3d,
  0x00, 0x6a, 0xfa, 0xb9, 0x36, 0xf1, 0x87, 0x3f, 0x98, 0x38, 0x13, 0xc0,
  0xae, 0x42, 0xec, 0x3d, 0x4a, 0x3f, 0x05, 0xbf, 0x62, 0x35, 0x9e, 0xbf,
  0x8b, 0xf1, 0xf0, 0x3d, 0x67, 0x39, 0x20, 0x3e, 0x0e, 0x0d, 0xd2, 0xbd,
  0xb8, 0xbd, 0x47, 0xbf, 0xfd, 0x2c, 0x32, 0xc0, 0x22, 0xc0, 0xa9, 0x3d,
  0x6d, 0x93, 0x0f, 0xbf, 0x74, 0x33, 0xb3, 0xbf, 0x4c, 0x89, 0x8c, 0x3d,
  0xf8, 0x79, 0x4e, 0x3d, 0x80, 0x28, 0xb7, 0xbc, 0xf7, 0x54, 0x9b, 0xbf,
  0x01, 0x81, 0xee, 0xbf, 0xca, 0xdf, 0x10, 0xbd, 0x6e, 0xde, 0xbb, 0x3f,
  0x6e, 0xe6, 0x26, 0x3f, 0xab, 0x88, 0x93, 0x3d, 0x4e, 0x77, 0xdf, 0x3d,
  0x88, 0x45, 0xda, 0x3c, 0xc2, 0xa7, 0xbe, 0x3f, 0x06, 0xa0, 0x15, 0xc0,
  0x83, 0x94, 0x00, 0x3e, 0x50, 0xd9, 0xaa, 0xbe, 0x1b, 0x6a, 0xaf, 0xbf,
  0x18, 0x81, 0x5e, 0xbd, 0xb5, 0x75, 0x15, 0xbe, 0x80, 0xa7, 0x4b, 0x3d,
  0x01, 0x97, 0x27, 0xbf, 0xe4, 0xb7, 0x3e, 0xc0, 0x04, 0x89, 0x7d, 0x3d,
  0x46, 0x96, 0x1d, 0xbf, 0xa1, 0x76, 0xba, 0xbf, 0xef, 0x5c, 0xb0, 0x3d,
  0xb8, 0xd6, 0xb8, 0xbc, 0xc8, 0x48, 0x13, 0x3d, 0x33, 0xde, 0x88, 0xbf,
  0x17, 0x6d, 0x01, 0xc0, 0xec, 0x30, 0x08, 0xbe, 0x42, 0xc0, 0x8f, 0x3f,
  0xd3, 0xc8, 0x53, 0x3f, 0xe9, 0x4c, 0xcd, 0x3d, 0xdf, 0x85, 0x06, 0x3e,
  0x45, 0xe1, 0x13, 0x3e, 0x53, 0x0b, 0x9d, 0x3f, 0x6a, 0x84, 0x00, 0xc0,
  0xa7, 0xd7, 0xf2, 0xbd, 0x49, 0x90, 0xa4, 0xbe, 0x07, 0x5d, 0xbb, 0xbf,
  0xb8, 0x8d, 0xfc, 0x3d, 0xa8, 0x88, 0xc9, 0xbd, 0x2d, 0x77, 0x1e, 0x3e,
  0xc1, 0x4f, 0x23, 0xbf, 0xe6, 0x43, 0x3e, 0xc0, 0xfd, 0xa3, 0xe6, 0xbd,
  0x45, 0xad, 0xe0, 0xbe, 0x42, 0xb9, 0xc5, 0xbf, 0xf7, 0x01, 0x4f, 0x3e,
  0x7a, 0x5c, 0xe1, 0x3d, 0xf6, 0x39, 0xb8, 0x3d, 0x09, 0x54, 0x88, 0xbf,
  0x83, 0xc0, 0xec, 0xbf, 0x78, 0xa9, 0x1e, 0xbd, 0x31, 0x0d, 0xb6, 0x3f,
  0x24, 0x01, 0x02, 0x3f, 0x1e, 0xc1, 0x9e, 0x3d, 0xea, 0x21, 0xda, 0x3d,
  0x2c, 0x69, 0x39, 0x3d, 0x73, 0xad, 0x9c, 0x3f, 0x41, 0x2e, 0x0f, 0xc0,
  0xc9, 0x29, 0x9b, 0xbd, 0xb6, 0x53, 0x82, 0xbe, 0x49, 0xb6, 0xb8, 0xbf,
  0x27, 0x04, 0xc1, 0x3d, 0x6a, 0xfc, 0xe6, 0xbd, 0x38, 0x13, 0x67, 0x3d,
  0xa5, 0xc5, 0x29, 0xbf, 0xc7, 0x7b, 0x33, 0xc0, 0xa6, 0xb2, 0x03, 0xbe,
  0x45, 0x5a, 0xdf, 0xbe, 0x99, 0x27, 0xc4, 0xbf, 0xa9, 0x97, 0xf4, 0x3d,
  0xff, 0x7b, 0xa4, 0xbd, 0xca, 0xf3, 0xe2, 0x3d, 0x04, 0x37, 0x91, 0xbf,
  0x43, 0xc0, 0x00, 0xc0, 0xb6, 0x86, 0x46, 0xbd, 0x48, 0xbf, 0xa6, 0x3f,
  0x6a, 0x43, 0x15, 0x3f, 0x1d, 0x83, 0x95, 0xbd, 0x8b, 0xf5, 0xde, 0xbd,
  0x02, 0x84, 0x1a, 0xbe, 0x24, 0x87, 0xb7, 0x3f, 0x0d, 0x94, 0x0a, 0xc0,
  0x58, 0x00, 0xff, 0x3c, 0x20, 0x35, 0x58, 0xbe, 0x30, 0x21, 0xb3, 0xbf,
  0x1a, 0x41, 0xcc, 0x3d, 0x90, 0x1f, 0xe1, 0xbc, 0xa8, 0x7d, 0x13, 0xbd,
  0x09, 0x17, 0x54, 0xbf, 0x49, 0x12, 0x39, 0xc0, 0x7e, 0xe7, 0x5c, 0xbd,
  0x28, 0x70, 0xf5, 0xbe, 0xd0, 0x4e, 0xb5, 0xbf, 0x12, 0x59, 0xca, 0x3d,
  0x1c, 0x67, 0x3a, 0x3d, 0xc4, 0xae, 0x52, 0x3d, 0x84, 0x58, 0x65, 0xbf,
  0x20, 0x74, 0x02, 0xc0, 0x84, 0x0e, 0x6b, 0xbd, 0x96, 0x1d, 0xab, 0x3f,
  0x2c, 0x99, 0x40, 0x3f, 0xea, 0x09, 0xe5, 0xbd, 0x72, 0xa1, 0x18, 0xbe,
  0xdc, 0x31, 0xec, 0xbd, 0x48, 0x93, 0xa6, 0x3f, 0x80, 0x25, 0x0a, 0xc0,
  0xad, 0xeb, 0xb1, 0xbd, 0x35, 0xaa, 0x25, 0x40, 0x9c, 0xdb, 0x47, 0x40,
  0x9e, 0x77, 0x53, 0xbe, 0x1c, 0x43, 0xe9, 0xbd, 0x8a, 0xc9, 0xa2, 0x3d,
  0x56, 0xd9, 0x37, 0x40, 0x01, 0xae, 0x63, 0x3f, 0x20, 0x52, 0x08, 0x3d,
  0x1d, 0xda, 0x0a, 0x40, 0x03, 0x40, 0x50, 0x40, 0xf3, 0x84, 0x9b, 0xbe,
  0x00, 0x83, 0x9d, 0xbc, 0x10, 0x52, 0xa6, 0xbd, 0xfa, 0x2c, 0x3a, 0x40,
  0xab, 0xc6, 0x55, 0x3f, 0xbe, 0xb8, 0xb9, 0xbd, 0x96, 0x4e, 0x1c, 0x40,
  0xb0, 0x28, 0x46, 0x40, 0xb2, 0x12, 0x65, 0xbe, 0x0a, 0xea, 0x3a, 0xbd,
  0x00, 0xc2, 0x7b, 0x3a, 0x9f, 0x6c, 0x27, 0x40, 0x67, 0xb6, 0x01, 0x3f,
  0x50, 0x25, 0x7d, 0x3d, 0x89, 0x2a, 0x21, 0x40, 0x21, 0x0d, 0x4c, 0x40,
  0xe2, 0x00, 0xae, 0xbe, 0x93, 0x4c, 0x1e, 0xbe, 0x98, 0x87, 0xa3, 0x3d,
  0x59, 0x9a, 0x41, 0x40, 0x8e, 0xd5, 0x51, 0x3f, 0x73, 0xfc, 0x11, 0xbe,
  0x47, 0xe9, 0x15, 0x40, 0x8c, 0x76, 0x50, 0x40, 0x55, 0x9e, 0x9d, 0xbe,
  0x37, 0xd6, 0xfa, 0xbd, 0xc8, 0x84, 0x15, 0xbe, 0xf4, 0x62, 0x32, 0x40,
  0x87, 0x09, 0x69, 0x3f, 0x00, 0xdd, 0x82, 0x3c, 0x7c, 0xd8, 0x22, 0x40,
  0xbd, 0x9f, 0x3a, 0x40, 0x72, 0x12, 0xcc, 0xbe, 0x00, 0x3f, 0x49, 0xbc,
  0xfd, 0x90, 0xa7, 0xbd, 0xa0, 0x48, 0x33, 0x40, 0x64, 0xdc, 0x08, 0x3f,
  0x86, 0x2a, 0x85, 0xbd, 0xdc, 0xec, 0x20, 0x40, 0x01, 0xb2, 0x4d, 0x40,
  0x3f, 0xb9, 0xc8, 0xbe, 0x27, 0x56, 0xb5, 0xbd, 0x70, 0xa2, 0x01, 0xbe,
  0xbb, 0x42, 0x40, 0x40, 0xc9, 0x6d, 0x83, 0x3f, 0xe0, 0xc9, 0x86, 0xbb,
  0xc8, 0x47, 0x0d, 0x40, 0x49, 0xeb, 0x4f, 0x40, 0x8f, 0xfb, 0x88, 0xbe,
  0xe6, 0xc5, 0x34, 0xbd, 0x91, 0x6c, 0x15, 0x3e, 0x19, 0xe8, 0x47, 0x40,
  0x16, 0xca, 0x68, 0x3f, 0x9c, 0xa6, 0x2f, 0x3d, 0x82, 0x35, 0x1d, 0x40,
  0x1f, 0xba, 0x3f, 0x40, 0xcf, 0x94, 0xb7, 0xbe, 0x3a, 0x31, 0x11, 0xbd,
  0x80, 0xbd, 0x4b, 0x3b, 0x2c, 0x43, 0x2d, 0x40, 0x69, 0x5f, 0xe8, 0x3e,
  0xdc, 0xf7, 0x33, 0x3d, 0x2a, 0xe5, 0x1a, 0x40, 0xff, 0x15, 0x41, 0x40,
  0x57, 0xf8, 0x78, 0xbe, 0x3c, 0xdf, 0xd3, 0xbd, 0xb0, 0x9c, 0x20, 0x3d,
  0x46, 0x73, 0x3d, 0x40, 0xc0, 0x6f, 0x89, 0x3f, 0x06, 0xba, 0x2c, 0xbd,
  0x59, 0x81, 0x12, 0x40, 0x09, 0xcb, 0x51, 0x40, 0x3a, 0x15, 0xa2, 0xbe,
  0xde, 0x8f, 0x6a, 0xbd, 0x22, 0xe4, 0xfb, 0x3d, 0xb5, 0x94, 0x41, 0x40,
  0x7b, 0x8d, 0x5e, 0x3f, 0x0c, 0x57, 0x95, 0x3d, 0xa1, 0xdb, 0x23, 0x40,
  0x36, 0xce, 0x47, 0x40, 0x71, 0xf4, 0x9c, 0xbe, 0x74, 0x95, 0x2c, 0x3d,
  0xd8, 0xd3, 0x80, 0xbc, 0x6a, 0xdd, 0x1c, 0x40, 0x76, 0xc7, 0xd5, 0x3e,
  0x70, 0x82, 0xcb, 0x3c, 0xde, 0xf2, 0x1d, 0x40, 0x12, 0xcf, 0x4e, 0x40,
  0x02, 0xd3, 0xac, 0xbe, 0xa5, 0xf9, 0x85, 0xbd, 0x00, 0x92, 0x9d, 0x39,
  0x75, 0xbe, 0x3c, 0x40, 0x13, 0xdf, 0x81, 0x3f, 0xa0, 0xf0, 0x82, 0x3c,
  0x39, 0x39, 0x13, 0x40, 0x21, 0x4d, 0x4c, 0x40, 0xb2, 0xaf, 0xc5, 0xbe,
  0xa0, 0xdb, 0x85, 0x3b, 0x98, 0x80, 0xbf, 0x3c, 0x2d, 0x4d, 0x35, 0x40,
  0xef, 0xd1, 0x4c, 0x3f, 0x80, 0x17, 0xc1, 0xbd, 0xbf, 0x72, 0x18, 0x40,
  0x8e, 0x95, 0x3d, 0x40, 0xb0, 0x3f, 0x9a, 0xbe, 0x45, 0x5d, 0x02, 0xbe,
  0x30, 0x89, 0x76, 0xbc, 0x0a, 0xd2, 0x2c, 0x40, 0x94, 0xd0, 0xea, 0x3e,
  0xe8, 0x96, 0xde, 0xbc, 0x6b, 0x77, 0x27, 0x40, 0xe3, 0x80, 0x4b, 0x40,
  0x7c, 0x0e, 0xaa, 0xbe, 0x9c, 0xce, 0x80, 0xbd, 0xa3, 0x67, 0x04, 0xbe,
  0x14, 0x43, 0x31, 0x40, 0xeb, 0xf2, 0x58, 0x3f, 0x3a, 0x4f, 0x95, 0x3d,
  0xd4, 0x28, 0x13, 0x40, 0x67, 0x03, 0x4f, 0x40, 0x90, 0x0d, 0xc1, 0xbe,
  0x02, 0xf5, 0xdf, 0xbd, 0x00, 0x03, 0x62, 0xbb, 0x96, 0xfd, 0x4a, 0x40,
  0xd9, 0x22, 0x77, 0x3f, 0xf7, 0xff, 0x0c, 0xbe, 0xd6, 0xe1, 0x1d, 0x40,
  0xe8, 0x5b, 0x49, 0x40, 0x2b, 0x8d, 0x9b, 0xbe, 0x88, 0xaf, 0x7e, 0x3d,
  0x92, 0xd4, 0x8e, 0x3d, 0x9a, 0xdb, 0x1e, 0x40, 0x64, 0x6f, 0x26, 0x3f,
  0x2e, 0xe4, 0x13, 0xbe, 0x71, 0x71, 0x20, 0x40, 0x39, 0x8d, 0x4a, 0x40,
  0x07, 0xbc, 0x00, 0xbf, 0x5a, 0x1a, 0xaf, 0x3d, 0x90, 0x21, 0xc0, 0x3c,
  0xc3, 0x20, 0x32, 0x40, 0x94, 0x84, 0x5d, 0x3f, 0x0b, 0xd4, 0xfe, 0xbd,
  0x44, 0x6f, 0x0b, 0x40, 0xe3, 0x6f, 0x49, 0x40, 0xfc, 0x5f, 0xad, 0xbe,
  0xe0, 0xb0, 0x87, 0x3b, 0x14, 0x43, 0x9e, 0xbd, 0xd3, 0x73, 0x3e, 0x40,
  0x58, 0xf4, 0x54, 0x3f, 0x10, 0xfb, 0x0f, 0xbe, 0xa7, 0x87, 0x15, 0x40,
  0x90, 0x69, 0x47, 0x40, 0xf7, 0xb9, 0x8a, 0xbe, 0xd9, 0xec, 0x05, 0x3e,
  0xed, 0x04, 0xbb, 0xbd, 0x76, 0x1f, 0x23, 0x40, 0x21, 0xed, 0xee, 0x3e,
  0x24, 0x3b, 0x20, 0x3d, 0x29, 0x0f, 0x18, 0x40, 0x13, 0xee, 0x50, 0x40,
  0x0e, 0x61, 0x93, 0xbe, 0xcd, 0xa8, 0x14, 0x3e, 0xc4, 0x61, 0xfc, 0xbd,
  0xf3, 0x12, 0x3a, 0x40, 0x52, 0x18, 0x75, 0x3f, 0x40, 0x75, 0x71, 0xbc,
  0x22, 0x44, 0x09, 0x40, 0x19, 0xb5, 0x50, 0x40, 0x0b, 0x52, 0x35, 0xbe,
  0xf3, 0x7d, 0x1b, 0xbe, 0x84, 0x4f, 0xed, 0xbd, 0x19, 0x9d, 0x30, 0x40,
  0x22, 0xcb, 0x7a, 0x3f, 0x57, 0xb7, 0x15, 0xbe, 0x55, 0x6d, 0x1d, 0x40,
  0x61, 0x25, 0x44, 0x40, 0xb2, 0xb4, 0x8d, 0xbe, 0x5e, 0x54, 0x00, 0xbe,
  0x14, 0x48, 0x2d, 0x3d, 0x62, 0x8b, 0x32, 0x40, 0x8d, 0x21, 0xa8, 0x3e,
  0x28, 0xac, 0x51, 0x3d, 0x0b, 0x34, 0x29, 0x40, 0x21, 0xee, 0x49, 0x40,
  0xa6, 0x02, 0xc2, 0xbe, 0x4c, 0x1c, 0x01, 0xbd, 0x12, 0xba, 0xc1, 0x3d,
  0x53, 0x77, 0x44, 0x40, 0x6d, 0x78, 0x4f, 0x3f, 0xa0, 0x2b, 0x6f, 0x3d,
  0xfb, 0xb2, 0x12, 0x40, 0x4f, 0xa6, 0x4a, 0x40, 0x0d, 0x78, 0xc9, 0xbe,
  0xcb, 0x90, 0x9a, 0xbd, 0xac, 0x13, 0x1a, 0x3d, 0x94, 0xc1, 0x3d, 0x40,
  0xbf, 0x9e, 0x3b, 0x3f, 0xe0, 0xb5, 0xfb, 0x3b, 0x09, 0x34, 0x15, 0x40,
  0xeb, 0xda, 0x48, 0x40, 0x8c, 0xea, 0xd9, 0xbe, 0x33, 0x7d, 0x82, 0xbd,
  0x93, 0x4a, 0xb6, 0xbd, 0x0e, 0x67, 0x27, 0x40, 0xdb, 0xac, 0xea, 0x3e,
  0x69, 0x2e, 0x18, 0x3e, 0x27, 0xb1, 0x18, 0x40, 0x7e, 0x14, 0x48, 0x40,
  0xcc, 0xfc, 0x8a, 0xbe, 0xbe, 0x96, 0xca, 0x3d, 0xb2, 0xeb, 0xdc, 0x3d,
  0x68, 0x3b, 0x3e, 0x40, 0x71, 0x9c, 0x64, 0x3f, 0xec, 0xaf, 0x06, 0xbe,
  0x56, 0x4e, 0x07, 0x40, 0x69, 0x2a, 0x4c, 0x40, 0xd8, 0x0b, 0xaf, 0xbe,
  0x00, 0xf9, 0x75, 0x3b, 0x38, 0x64, 0xe1, 0xbc, 0x93, 0xfb, 0x33, 0x40,
  0xa1, 0x9e, 0x7f, 0x3f, 0x44, 0x4a, 0x6b, 0x3d, 0x5d, 0x85, 0x1c, 0x40,
  0x23, 0xda, 0x40, 0x40, 0x37, 0x73, 0xdc, 0xbe, 0x15, 0xba, 0x07, 0x3e,
  0x0c, 0x92, 0xa0, 0x3d, 0xd6, 0x3d, 0x2b, 0x40, 0x9d, 0x41, 0x0d, 0x3f,
  0x92, 0xfe, 0xff, 0xff, 0x04, 0x00, 0x00, 0x00, 0x08, 0x00, 0x00, 0x00,
  0xff, 0xff, 0xff, 0xff, 0xf0, 0x00, 0x00, 0x00, 0xa6, 0xfe, 0xff, 0xff,
  0x04, 0x00, 0x00, 0x00, 0x0c, 0x00, 0x00, 0x00, 0x72, 0x21, 0xcb, 0xbd,
  0x52, 0x62, 0xc9, 0x3e, 0x21, 0x3e, 0x67, 0xbf, 0xbe, 0xfe, 0xff, 0xff,
  0x04, 0x00, 0x00, 0x00, 0x80, 0x00, 0x00, 0x00, 0x9e, 0x6e, 0xbd, 0xbe,
  0xc0, 0xe1, 0x4a, 0xbd, 0x4c, 0xe8, 0x50, 0x3e, 0x10, 0x81, 0x6c, 0xbe,
  0x5b, 0xd3, 0xd2, 0xbe, 0x9b, 0x8d, 0x29, 0x3f, 0x80, 0xec, 0xd0, 0x3e,
  0x1f, 0x78, 0x2a, 0xbf, 0xfd, 0xd2, 0x32, 0x3f, 0x46, 0xd2, 0x0e, 0x3c,
  0x5d, 0x82, 0x35, 0xbf, 0xf9, 0x35, 0x43, 0x3a, 0x61, 0xdd, 0x21, 0xbd,
  0x4f, 0x03, 0xb7, 0x3e, 0xf4, 0xe8, 0xb8, 0x3e, 0x0e, 0x60, 0xcb, 0x3e,
  0xd4, 0xbb, 0x28, 0x3e, 0xed, 0x9c, 0xa7, 0xbe, 0x18, 0x77, 0x31, 0x3d,
  0xfc, 0x1a, 0xa9, 0xbe, 0x41, 0xf8, 0x7a, 0xbe, 0x66, 0xca, 0x61, 0xbe,
  0xaa, 0x67, 0xa6, 0xbe, 0x90, 0xdc, 0x85, 0xbc, 0x8c, 0x3e, 0xa9, 0x3d,
  0xd9, 0x43, 0x2f, 0xbf, 0x44, 0x07, 0xab, 0xbd, 0x4e, 0xf7, 0x2e, 0x3f,
  0x4b, 0x3c, 0x1b, 0xbf, 0x5e, 0xc5, 0xff, 0x3e, 0x39, 0xc2, 0xa9, 0xbe,
  0xb5, 0x19, 0xf8, 0x3e, 0x4a, 0xff, 0xff, 0xff, 0x04, 0x00, 0x00, 0x00,
  0x20, 0x00, 0x00, 0x00, 0x00, 0x00, 0x00, 0x00, 0x55, 0x3f, 0xff, 0x3b,
  0x94, 0x19, 0xd4, 0xb9, 0xd9, 0x7a, 0xdb, 0x3d, 0x00, 0x00, 0x00, 0x00,
  0x00, 0x00, 0x00, 0x00, 0xf7, 0x8c, 0x04, 0x3b, 0xea, 0x86, 0xcb, 0xbc,
  0x7c, 0xf9, 0xff, 0xff, 0x80, 0xf9, 0xff, 0xff, 0x0f, 0x00, 0x00, 0x00,
  0x4d, 0x4c, 0x49, 0x52, 0x20, 0x43, 0x6f, 0x6e, 0x76, 0x65, 0x72, 0x74,
  0x65, 0x64, 0x2e, 0x00, 0x01, 0x00, 0x00, 0x00, 0x14, 0x00, 0x00, 0x00,
  0x00, 0x00, 0x0e, 0x00, 0x18, 0x00, 0x14, 0x00, 0x10, 0x00, 0x0c, 0x00,
  0x08, 0x00, 0x04, 0x00, 0x0e, 0x00, 0x00, 0x00, 0x14, 0x00, 0x00, 0x00,
  0x1c, 0x00, 0x00, 0x00, 0x88, 0x01, 0x00, 0x00, 0x8c, 0x01, 0x00, 0x00,
  0x90, 0x01, 0x00, 0x00, 0x04, 0x00, 0x00, 0x00, 0x6d, 0x61, 0x69, 0x6e,
  0x00, 0x00, 0x00, 0x00, 0x05, 0x00, 0x00, 0x00, 0x20, 0x01, 0x00, 0x00,
  0xbc, 0x00, 0x00, 0x00, 0x84, 0x00, 0x00, 0x00, 0x40, 0x00, 0x00, 0x00,
  0x04, 0x00, 0x00, 0x00, 0x62, 0xff, 0xff, 0xff, 0x1c, 0x00, 0x00, 0x00,
  0x00, 0x00, 0x00, 0x09, 0x1c, 0x00, 0x00, 0x00, 0x20, 0x00, 0x00, 0x00,
  0x04, 0x00, 0x00, 0x00, 0x00, 0x00, 0x06, 0x00, 0x08, 0x00, 0x04, 0x00,
  0x06, 0x00, 0x00, 0x00, 0x00, 0x00, 0x80, 0x3f, 0x01, 0x00, 0x00, 0x00,
  0x0a, 0x00, 0x00, 0x00, 0x01, 0x00, 0x00, 0x00, 0x09, 0x00, 0x00, 0x00,
  0x9a, 0xff, 0xff, 0xff, 0x14, 0x00, 0x00, 0x00, 0x00, 0x00, 0x00, 0x08,
  0x10, 0x00, 0x00, 0x00, 0x14, 0x00, 0x00, 0x00, 0x03, 0x00, 0x00, 0x00,
  0x3c, 0xfa, 0xff, 0xff, 0x01, 0x00, 0x00, 0x00, 0x09, 0x00, 0x00, 0x00,
  0x03, 0x00, 0x00, 0x00, 0x08, 0x00, 0x00, 0x00, 0x05, 0x00, 0x00, 0x00,
  0x03, 0x00, 0x00, 0x00, 0x00, 0x00, 0x0a, 0x00, 0x10, 0x00, 0x0c, 0x00,
  0x08, 0x00, 0x04, 0x00, 0x0a, 0x00, 0x00, 0x00, 0x0c, 0x00, 0x00, 0x00,
  0x10, 0x00, 0x00, 0x00, 0x02, 0x00, 0x00, 0x00, 0x01, 0x00, 0x00, 0x00,
  0x08, 0x00, 0x00, 0x00, 0x02, 0x00, 0x00, 0x00, 0x07, 0x00, 0x00, 0x00,
  0x04, 0x00, 0x00, 0x00, 0x00, 0x00, 0x0e, 0x00, 0x1a, 0x00, 0x14, 0x00,
  0x10, 0x00, 0x0c, 0x00, 0x0b, 0x00, 0x04, 0x00, 0x0e, 0x00, 0x00, 0x00,
  0x24, 0x00, 0x00, 0x00, 0x00, 0x00, 0x00, 0x05, 0x34, 0x00, 0x00, 0x00,
  0x38, 0x00, 0x00, 0x00, 0x01, 0x00, 0x00, 0x00, 0x00, 0x00, 0x0e, 0x00,
  0x18, 0x00, 0x17, 0x00, 0x10, 0x00, 0x0c, 0x00, 0x08, 0x00, 0x04, 0x00,
  0x0e, 0x00, 0x00, 0x00, 0x02, 0x00, 0x00, 0x00, 0x01, 0x00, 0x00, 0x00,
  0x02, 0x00, 0x00, 0x00, 0x01, 0x00, 0x00, 0x00, 0x00, 0x00, 0x00, 0x01,
  0x01, 0x00, 0x00, 0x00, 0x07, 0x00, 0x00, 0x00, 0x01, 0x00, 0x00, 0x00,
  0x06, 0x00, 0x00, 0x00, 0x00, 0x00, 0x0e, 0x00, 0x14, 0x00, 0x00, 0x00,
  0x10, 0x00, 0x0c, 0x00, 0x0b, 0x00, 0x04, 0x00, 0x0e, 0x00, 0x00, 0x00,
  0x1c, 0x00, 0x00, 0x00, 0x00, 0x00, 0x00, 0x01, 0x28, 0x00, 0x00, 0x00,
  0x2c, 0x00, 0x00, 0x00, 0x0c, 0x00, 0x14, 0x00, 0x13, 0x00, 0x0c, 0x00,
  0x08, 0x00, 0x07, 0x00, 0x0c, 0x00, 0x00, 0x00, 0x00, 0x00, 0x00, 0x01,
  0x01, 0x00, 0x00, 0x00, 0x01, 0x00, 0x00, 0x00, 0x00, 0x00, 0x00, 0x01,
  0x01, 0x00, 0x00, 0x00, 0x06, 0x00, 0x00, 0x00, 0x03, 0x00, 0x00, 0x00,
  0x00, 0x00, 0x00, 0x00, 0x02, 0x00, 0x00, 0x00, 0x01, 0x00, 0x00, 0x00,
  0x01, 0x00, 0x00, 0x00, 0x0a, 0x00, 0x00, 0x00, 0x01, 0x00, 0x00, 0x00,
  0x00, 0x00, 0x00, 0x00, 0x0b, 0x00, 0x00, 0x00, 0x78, 0x04, 0x00, 0x00,
  0x04, 0x04, 0x00, 0x00, 0x94, 0x03, 0x00, 0x00, 0x3c, 0x03, 0x00, 0x00,
  0xec, 0x02, 0x00, 0x00, 0x88, 0x02, 0x00, 0x00, 0xb4, 0x01, 0x00, 0x00,
  0x3c, 0x01, 0x00, 0x00, 0xdc, 0x00, 0x00, 0x00, 0x60, 0x00, 0x00, 0x00,
  0x04, 0x00, 0x00, 0x00, 0xca, 0xfb, 0xff, 0xff, 0x00, 0x00, 0x00, 0x01,
  0x14, 0x00, 0x00, 0x00, 0x1c, 0x00, 0x00, 0x00, 0x1c, 0x00, 0x00, 0x00,
  0x0b, 0x00, 0x00, 0x00, 0x34, 0x00, 0x00, 0x00, 0x02, 0x00, 0x00, 0x00,
  0xff, 0xff, 0xff, 0xff, 0x03, 0x00, 0x00, 0x00, 0xac, 0xfb, 0xff, 0xff,
  0x19, 0x00, 0x00, 0x00, 0x53, 0x74, 0x61, 0x74, 0x65, 0x66, 0x75, 0x6c,
  0x50, 0x61, 0x72, 0x74, 0x69, 0x74, 0x69, 0x6f, 0x6e, 0x65, 0x64, 0x43,
  0x61, 0x6c, 0x6c, 0x3a, 0x30, 0x00, 0x00, 0x00, 0x02, 0x00, 0x00, 0x00,
  0x01, 0x00, 0x00, 0x00, 0x03, 0x00, 0x00, 0x00, 0x22, 0xfc, 0xff, 0xff,
  0x00, 0x00, 0x00, 0x01, 0x14, 0x00, 0x00, 0x00, 0x1c, 0x00, 0x00, 0x00,
  0x1c, 0x00, 0x00, 0x00, 0x0a, 0x00, 0x00, 0x00, 0x54, 0x00, 0x00, 0x00,
  0x02, 0x00, 0x00, 0x00, 0xff, 0xff, 0xff, 0xff, 0x03, 0x00, 0x00, 0x00,
  0x04, 0xfc, 0xff, 0xff, 0x38, 0x00, 0x00, 0x00, 0x73, 0x65, 0x71, 0x75,
  0x65, 0x6e, 0x74, 0x69, 0x61, 0x6c, 0x5f, 0x31, 0x2f, 0x64, 0x65, 0x6e,
  0x73, 0x65, 0x5f, 0x31, 0x2f, 0x4d, 0x61, 0x74, 0x4d, 0x75, 0x6c, 0x3b,
  0x73, 0x65, 0x71, 0x75, 0x65, 0x6e, 0x74, 0x69, 0x61, 0x6c, 0x5f, 0x31,
  0x2f, 0x64, 0x65, 0x6e, 0x73, 0x65, 0x5f, 0x31, 0x2f, 0x42, 0x69, 0x61,
  0x73, 0x41, 0x64, 0x64, 0x00, 0x00, 0x00, 0x00, 0x02, 0x00, 0x00, 0x00,
  0x01, 0x00, 0x00, 0x00, 0x03, 0x00, 0x00, 0x00, 0x9a, 0xfc, 0xff, 0xff,
  0x00, 0x00, 0x00, 0x01, 0x14, 0x00, 0x00, 0x00, 0x1c, 0x00, 0x00, 0x00,
  0x1c, 0x00, 0x00, 0x00, 0x09, 0x00, 0x00, 0x00, 0x38, 0x00, 0x00, 0x00,
  0x02, 0x00, 0x00, 0x00, 0xff, 0xff, 0xff, 0xff, 0xf0, 0x00, 0x00, 0x00,
  0x7c, 0xfc, 0xff, 0xff, 0x1e, 0x00, 0x00, 0x00, 0x73, 0x65, 0x71, 0x75,
  0x65, 0x6e, 0x74, 0x69, 0x61, 0x6c, 0x5f, 0x31, 0x2f, 0x66, 0x6c, 0x61,
  0x74, 0x74, 0x65, 0x6e, 0x5f, 0x31, 0x2f, 0x52, 0x65, 0x73, 0x68, 0x61,
  0x70, 0x65, 0x00, 0x00, 0x02, 0x00, 0x00, 0x00, 0x01, 0x00, 0x00, 0x00,
  0xf0, 0x00, 0x00, 0x00, 0xf6, 0xfc, 0xff, 0xff, 0x00, 0x00, 0x00, 0x01,
  0x14, 0x00, 0x00, 0x00, 0x24, 0x00, 0x00, 0x00, 0x24, 0x00, 0x00, 0x00,
  0x08, 0x00, 0x00, 0x00, 0x48, 0x00, 0x00, 0x00, 0x04, 0x00, 0x00, 0x00,
  0xff, 0xff, 0xff, 0xff, 0x0a, 0x00, 0x00, 0x00, 0x03, 0x00, 0x00, 0x00,
  0x08, 0x00, 0x00, 0x00, 0xe0, 0xfc, 0xff, 0xff, 0x24, 0x00, 0x00, 0x00,
  0x73, 0x65, 0x71, 0x75, 0x65, 0x6e, 0x74, 0x69, 0x61, 0x6c, 0x5f, 0x31,
  0x2f, 0x6d, 0x61, 0x78, 0x5f, 0x70, 0x6f, 0x6f, 0x6c, 0x69, 0x6e, 0x67,
  0x32, 0x64, 0x5f, 0x31, 0x2f, 0x4d, 0x61, 0x78, 0x50, 0x6f, 0x6f, 0x6c,
  0x00, 0x00, 0x00, 0x00, 0x04, 0x00, 0x00, 0x00, 0x01, 0x00, 0x00, 0x00,
  0x0a, 0x00, 0x00, 0x00, 0x03, 0x00, 0x00, 0x00, 0x08, 0x00, 0x00, 0x00,
  0x6a, 0xfd, 0xff, 0xff, 0x00, 0x00, 0x00, 0x01, 0x14, 0x00, 0x00, 0x00,
  0x24, 0x00, 0x00, 0x00, 0x24, 0x00, 0x00, 0x00, 0x07, 0x00, 0x00, 0x00,
  0xa4, 0x00, 0x00, 0x00, 0x04, 0x00, 0x00, 0x00, 0xff, 0xff, 0xff, 0xff,
  0x15, 0x00, 0x00, 0x00, 0x03, 0x00, 0x00, 0x00, 0x08, 0x00, 0x00, 0x00,
  0x54, 0xfd, 0xff, 0xff, 0x82, 0x00, 0x00, 0x00, 0x73, 0x65, 0x71, 0x75,
  0x65, 0x6e, 0x74, 0x69, 0x61, 0x6c, 0x5f, 0x31, 0x2f, 0x63, 0x6f, 0x6e,
  0x76, 0x32, 0x64, 0x5f, 0x31, 0x2f, 0x52, 0x65, 0x6c, 0x75, 0x3b, 0x73,
  0x65, 0x71, 0x75, 0x65, 0x6e, 0x74, 0x69, 0x61, 0x6c, 0x5f, 0x31, 0x2f,
  0x63, 0x6f, 0x6e, 0x76, 0x32, 0x64, 0x5f, 0x31, 0x2f, 0x42, 0x69, 0x61,
  0x73, 0x41, 0x64, 0x64, 0x3b, 0x73, 0x65, 0x71, 0x75, 0x65, 0x6e, 0x74,
  0x69, 0x61, 0x6c, 0x5f, 0x31, 0x2f, 0x63, 0x6f, 0x6e, 0x76, 0x32, 0x64,
  0x5f, 0x31, 0x2f, 0x43, 0x6f, 0x6e, 0x76, 0x32, 0x44, 0x3b, 0x73, 0x65,
  0x71, 0x75, 0x65, 0x6e, 0x74, 0x69, 0x61, 0x6c, 0x5f, 0x31, 0x2f, 0x63,
  0x6f, 0x6e, 0x76, 0x32, 0x64, 0x5f, 0x31, 0x2f, 0x42, 0x69, 0x61, 0x73,
  0x41, 0x64, 0x64, 0x2f, 0x52, 0x65, 0x61, 0x64, 0x56, 0x61, 0x72, 0x69,
  0x61, 0x62, 0x6c, 0x65, 0x4f, 0x70, 0x00, 0x00, 0x04, 0x00, 0x00, 0x00,
  0x01, 0x00, 0x00, 0x00, 0x15, 0x00, 0x00, 0x00, 0x03, 0x00, 0x00, 0x00,
  0x08, 0x00, 0x00, 0x00, 0xaa, 0xfe, 0xff, 0xff, 0x00, 0x00, 0x00, 0x01,
  0x10, 0x00, 0x00, 0x00, 0x10, 0x00, 0x00, 0x00, 0x06, 0x00, 0x00, 0x00,
  0x28, 0x00, 0x00, 0x00, 0x0c, 0xfe, 0xff, 0xff, 0x1b, 0x00, 0x00, 0x00,
  0x73, 0x65, 0x71, 0x75, 0x65, 0x6e, 0x74, 0x69, 0x61, 0x6c, 0x5f, 0x31,
  0x2f, 0x64, 0x65, 0x6e, 0x73, 0x65, 0x5f, 0x31, 0x2f, 0x4d, 0x61, 0x74,
  0x4d, 0x75, 0x6c, 0x00, 0x02, 0x00, 0x00, 0x00, 0x03, 0x00, 0x00, 0x00,
  0xf0, 0x00, 0x00, 0x00, 0x00, 0x00, 0x16, 0x00, 0x1c, 0x00, 0x18, 0x00,
  0x17, 0x00, 0x10, 0x00, 0x0c, 0x00, 0x08, 0x00, 0x00, 0x00, 0x00, 0x00,
  0x00, 0x00, 0x07, 0x00, 0x16, 0x00, 0x00, 0x00, 0x00, 0x00, 0x00, 0x01,
  0x14, 0x00, 0x00, 0x00, 0x14, 0x00, 0x00, 0x00, 0x05, 0x00, 0x00, 0x00,
  0x00, 0x00, 0x00, 0x02, 0x2c, 0x00, 0x00, 0x00, 0x70, 0xfe, 0xff, 0xff,
  0x1c, 0x00, 0x00, 0x00, 0x73, 0x65, 0x71, 0x75, 0x65, 0x6e, 0x74, 0x69,
  0x61, 0x6c, 0x5f, 0x31, 0x2f, 0x66, 0x6c, 0x61, 0x74, 0x74, 0x65, 0x6e,
  0x5f, 0x31, 0x2f, 0x43, 0x6f, 0x6e, 0x73, 0x74, 0x00, 0x00, 0x00, 0x00,
  0x01, 0x00, 0x00, 0x00, 0x02, 0x00, 0x00, 0x00, 0x56, 0xff, 0xff, 0xff,
  0x00, 0x00, 0x00, 0x01, 0x10, 0x00, 0x00, 0x00, 0x10, 0x00, 0x00, 0x00,
  0x04, 0x00, 0x00, 0x00, 0x38, 0x00, 0x00, 0x00, 0xb8, 0xfe, 0xff, 0xff,
  0x2b, 0x00, 0x00, 0x00, 0x73, 0x65, 0x71, 0x75, 0x65, 0x6e, 0x74, 0x69,
  0x61, 0x6c, 0x5f, 0x31, 0x2f, 0x64, 0x65, 0x6e, 0x73, 0x65, 0x5f, 0x31,
  0x2f, 0x42, 0x69, 0x61, 0x73, 0x41, 0x64, 0x64, 0x2f, 0x52, 0x65, 0x61,
  0x64, 0x56, 0x61, 0x72, 0x69, 0x61, 0x62, 0x6c, 0x65, 0x4f, 0x70, 0x00,
  0x01, 0x00, 0x00, 0x00, 0x03, 0x00, 0x00, 0x00, 0xaa, 0xff, 0xff, 0xff,
  0x00, 0x00, 0x00, 0x01, 0x10, 0x00, 0x00, 0x00, 0x10, 0x00, 0x00, 0x00,
  0x03, 0x00, 0x00, 0x00, 0x2c, 0x00, 0x00, 0x00, 0x0c, 0xff, 0xff, 0xff,
  0x1c, 0x00, 0x00, 0x00, 0x73, 0x65, 0x71, 0x75, 0x65, 0x6e, 0x74, 0x69,
  0x61, 0x6c, 0x5f, 0x31, 0x2f, 0x63, 0x6f, 0x6e, 0x76, 0x32, 0x64, 0x5f,
  0x31, 0x2f, 0x43, 0x6f, 0x6e, 0x76, 0x32, 0x44, 0x00, 0x00, 0x00, 0x00,
  0x04, 0x00, 0x00, 0x00, 0x08, 0x00, 0x00, 0x00, 0x04, 0x00, 0x00, 0x00,
  0x01, 0x00, 0x00, 0x00, 0x01, 0x00, 0x00, 0x00, 0x00, 0x00, 0x16, 0x00,
  0x18, 0x00, 0x14, 0x00, 0x00, 0x00, 0x10, 0x00, 0x0c, 0x00, 0x08, 0x00,
  0x00, 0x00, 0x00, 0x00, 0x00, 0x00, 0x07, 0x00, 0x16, 0x00, 0x00, 0x00,
  0x00, 0x00, 0x00, 0x01, 0x10, 0x00, 0x00, 0x00, 0x10, 0x00, 0x00, 0x00,
  0x02, 0x00, 0x00, 0x00, 0x3c, 0x00, 0x00, 0x00, 0x78, 0xff, 0xff, 0xff,
  0x2c, 0x00, 0x00, 0x00, 0x73, 0x65, 0x71, 0x75, 0x65, 0x6e, 0x74, 0x69,
  0x61, 0x6c, 0x5f, 0x31, 0x2f, 0x63, 0x6f, 0x6e, 0x76, 0x32, 0x64, 0x5f,
  0x31, 0x2f, 0x42, 0x69, 0x61, 0x73, 0x41, 0x64, 0x64, 0x2f, 0x52, 0x65,
  0x61, 0x64, 0x56, 0x61, 0x72, 0x69, 0x61, 0x62, 0x6c, 0x65, 0x4f, 0x70,
  0x00, 0x00, 0x00, 0x00, 0x01, 0x00, 0x00, 0x00, 0x08, 0x00, 0x00, 0x00,
  0x00, 0x00, 0x16, 0x00, 0x1c, 0x00, 0x18, 0x00, 0x00, 0x00, 0x14, 0x00,
  0x10, 0x00, 0x0c, 0x00, 0x00, 0x00, 0x00, 0x00, 0x08, 0x00, 0x07, 0x00,
  0x16, 0x00, 0x00, 0x00, 0x00, 0x00, 0x00, 0x01, 0x14, 0x00, 0x00, 0x00,
  0x28, 0x00, 0x00, 0x00, 0x28, 0x00, 0x00, 0x00, 0x01, 0x00, 0x00, 0x00,
  0x48, 0x00, 0x00, 0x00, 0x04, 0x00, 0x00, 0x00, 0xff, 0xff, 0xff, 0xff,
  0x18, 0x00, 0x00, 0x00, 0x03, 0x00, 0x00, 0x00, 0x01, 0x00, 0x00, 0x00,
  0x04, 0x00, 0x04, 0x00, 0x04, 0x00, 0x00, 0x00, 0x20, 0x00, 0x00, 0x00,
  0x73, 0x65, 0x72, 0x76, 0x69, 0x6e, 0x67, 0x5f, 0x64, 0x65, 0x66, 0x61,
  0x75, 0x6c, 0x74, 0x5f, 0x63, 0x6f, 0x6e, 0x76, 0x32, 0x64, 0x5f, 0x31,
  0x5f, 0x69, 0x6e, 0x70, 0x75, 0x74, 0x3a, 0x30, 0x00, 0x00, 0x00, 0x00,
  0x04, 0x00, 0x00, 0x00, 0x01, 0x00, 0x00, 0x00, 0x18, 0x00, 0x00, 0x00,
  0x03, 0x00, 0x00, 0x00, 0x01, 0x00, 0x00, 0x00, 0x05, 0x00, 0x00, 0x00,
  0x50, 0x00, 0x00, 0x00, 0x34, 0x00, 0x00, 0x00, 0x24, 0x00, 0x00, 0x00,
  0x14, 0x00, 0x00, 0x00, 0x04, 0x00, 0x00, 0x00, 0xd0, 0xff, 0xff, 0xff,
  0x19, 0x00, 0x00, 0x00, 0x00, 0x00, 0x00, 0x19, 0xdc, 0xff, 0xff, 0xff,
  0x09, 0x00, 0x00, 0x00, 0x00, 0x00, 0x00, 0x09, 0xe8, 0xff, 0xff, 0xff,
  0x16, 0x00, 0x00, 0x00, 0x00, 0x00, 0x00, 0x16, 0xf4, 0xff, 0xff, 0xff,
  0x11, 0x00, 0x00, 0x00, 0x00, 0x00, 0x00, 0x11, 0x0c, 0x00, 0x0c, 0x00,
  0x0b, 0x00, 0x00, 0x00, 0x00, 0x00, 0x04, 0x00, 0x0c, 0x00, 0x00, 0x00,
  0x03, 0x00, 0x00, 0x00, 0x00, 0x00, 0x00, 0x03
};
unsigned int autoencoder_model_len = 5420;
#endif //MODELS/AUTOENCODER/AUTOENCODER_MODEL_H